#include "model.h"
                    
// Keep model aligned to 8 bytes to guarantee aligned 64-bit accesses.
alignas(8) const unsigned char g_model[] = {
0x1c, 0x00, 0x00, 0x00, 0x54, 0x46, 0x4c, 0x33, 0x14, 0x00, 0x20, 0x00, 
0x04, 0x00, 0x08, 0x00, 0x0c, 0x00, 0x10, 0x00, 0x14, 0x00, 0x00, 0x00, 
0x18, 0x00, 0x1c, 0x00, 0x14, 0x00, 0x00, 0x00, 0x03, 0x00, 0x00, 0x00, 
0x18, 0x00, 0x00, 0x00, 0x20, 0x00, 0x00, 0x00, 0x2c, 0x01, 0x00, 0x00, 
0x20, 0x00, 0x00, 0x00, 0xd4, 0x00, 0x00, 0x00, 0x40, 0x00, 0x00, 0x00, 
0x02, 0x00, 0x00, 0x00, 0x54, 0x03, 0x00, 0x00, 0xd8, 0x01, 0x00, 0x00, 
0x01, 0x00, 0x00, 0x00, 0x30, 0x01, 0x00, 0x00, 0x09, 0x00, 0x00, 0x00, 
0x5c, 0x0d, 0x00, 0x00, 0x58, 0x0d, 0x00, 0x00, 0x80, 0x0c, 0x00, 0x00, 
0x70, 0x04, 0x00, 0x00, 0xdc, 0x03, 0x00, 0x00, 0x48, 0x0d, 0x00, 0x00, 
0x44, 0x0d, 0x00, 0x00, 0x40, 0x0d, 0x00, 0x00, 0xc8, 0x00, 0x00, 0x00, 
0x01, 0x00, 0x00, 0x00, 0x10, 0x00, 0x00, 0x00, 0x00, 0x00, 0x0a, 0x00, 
0x10, 0x00, 0x0c, 0x00, 0x08, 0x00, 0x04, 0x00, 0x0a, 0x00, 0x00, 0x00, 
0x0c, 0x00, 0x00, 0x00, 0x1c, 0x00, 0x00, 0x00, 0x20, 0x00, 0x00, 0x00, 
0x0f, 0x00, 0x00, 0x00, 0x73, 0x65, 0x72, 0x76, 0x69, 0x6e, 0x67, 0x5f, 
0x64, 0x65, 0x66, 0x61, 0x75, 0x6c, 0x74, 0x00, 0x01, 0x00, 0x00, 0x00, 
0x14, 0x00, 0x00, 0x00, 0x01, 0x00, 0x00, 0x00, 0x2c, 0x00, 0x00, 0x00, 
0x08, 0x00, 0x0c, 0x00, 0x08, 0x00, 0x04, 0x00, 0x08, 0x00, 0x00, 0x00, 
0x06, 0x00, 0x00, 0x00, 0x04, 0x00, 0x00, 0x00, 0x0c, 0x00, 0x00, 0x00, 
0x64, 0x65, 0x6e, 0x73, 0x65, 0x5f, 0x44, 0x65, 0x6e, 0x73, 0x65, 0x32, 
0x00, 0x00, 0x00, 0x00, 0x12, 0xf4, 0xff, 0xff, 0x04, 0x00, 0x00, 0x00, 
0x12, 0x00, 0x00, 0x00, 0x64, 0x65, 0x6e, 0x73, 0x65, 0x5f, 0x44, 0x65, 
0x6e, 0x73, 0x65, 0x31, 0x5f, 0x69, 0x6e, 0x70, 0x75, 0x74, 0x00, 0x00, 
0x01, 0x00, 0x00, 0x00, 0x0c, 0x00, 0x00, 0x00, 0x08, 0x00, 0x0c, 0x00, 
0x04, 0x00, 0x08, 0x00, 0x08, 0x00, 0x00, 0x00, 0x08, 0x00, 0x00, 0x00, 
0x08, 0x00, 0x00, 0x00, 0x13, 0x00, 0x00, 0x00, 0x6d, 0x69, 0x6e, 0x5f, 
0x72, 0x75, 0x6e, 0x74, 0x69, 0x6d, 0x65, 0x5f, 0x76, 0x65, 0x72, 0x73, 
0x69, 0x6f, 0x6e, 0x00, 0x66, 0xf4, 0xff, 0xff, 0x04, 0x00, 0x00, 0x00, 
0x10, 0x00, 0x00, 0x00, 0x31, 0x2e, 0x35, 0x2e, 0x30, 0x00, 0x00, 0x00, 
0x00, 0x00, 0x00, 0x00, 0x00, 0x00, 0x00, 0x00, 0x0f, 0x00, 0x00, 0x00, 
0x4d, 0x4c, 0x49, 0x52, 0x20, 0x43, 0x6f, 0x6e, 0x76, 0x65, 0x72, 0x74, 
0x65, 0x64, 0x2e, 0x00, 0x00, 0x00, 0x0e, 0x00, 0x18, 0x00, 0x04, 0x00, 
0x08, 0x00, 0x0c, 0x00, 0x10, 0x00, 0x14, 0x00, 0x0e, 0x00, 0x00, 0x00, 
0x14, 0x00, 0x00, 0x00, 0x30, 0x00, 0x00, 0x00, 0x34, 0x00, 0x00, 0x00, 
0x38, 0x00, 0x00, 0x00, 0x44, 0x00, 0x00, 0x00, 0x07, 0x00, 0x00, 0x00, 
0xb4, 0x0b, 0x00, 0x00, 0x64, 0x0b, 0x00, 0x00, 0xe4, 0x0a, 0x00, 0x00, 
0xe0, 0x02, 0x00, 0x00, 0xfc, 0x01, 0x00, 0x00, 0x14, 0x01, 0x00, 0x00, 
0x7c, 0x00, 0x00, 0x00, 0x01, 0x00, 0x00, 0x00, 0x00, 0x00, 0x00, 0x00, 
0x01, 0x00, 0x00, 0x00, 0x06, 0x00, 0x00, 0x00, 0x03, 0x00, 0x00, 0x00, 
0x84, 0x01, 0x00, 0x00, 0xc4, 0x00, 0x00, 0x00, 0x1c, 0x00, 0x00, 0x00, 
0x04, 0x00, 0x00, 0x00, 0x6d, 0x61, 0x69, 0x6e, 0x00, 0x00, 0x0e, 0x00, 
0x18, 0x00, 0x08, 0x00, 0x0c, 0x00, 0x10, 0x00, 0x07, 0x00, 0x14, 0x00, 
0x0e, 0x00, 0x00, 0x00, 0x00, 0x00, 0x00, 0x09, 0x01, 0x00, 0x00, 0x00, 
0x1c, 0x00, 0x00, 0x00, 0x10, 0x00, 0x00, 0x00, 0x04, 0x00, 0x00, 0x00, 
0x2e, 0xf5, 0xff, 0xff, 0x00, 0x00, 0x80, 0x3f, 0x01, 0x00, 0x00, 0x00, 
0x06, 0x00, 0x00, 0x00, 0x01, 0x00, 0x00, 0x00, 0x05, 0x00, 0x00, 0x00, 
0x94, 0xfe, 0xff, 0xff, 0x19, 0x00, 0x00, 0x00, 0x00, 0x00, 0x00, 0x19, 
0x01, 0x00, 0x00, 0x00, 0xf4, 0xf4, 0xff, 0xff, 0x14, 0x00, 0x00, 0x00, 
0x07, 0x00, 0x00, 0x00, 0x18, 0x00, 0x00, 0x00, 0x40, 0x00, 0x00, 0x00, 
0x30, 0x00, 0x00, 0x00, 0x02, 0x00, 0x00, 0x00, 0x01, 0x00, 0x00, 0x00, 
0x02, 0x00, 0x00, 0x00, 0x19, 0x00, 0x00, 0x00, 0x53, 0x74, 0x61, 0x74, 
0x65, 0x66, 0x75, 0x6c, 0x50, 0x61, 0x72, 0x74, 0x69, 0x74, 0x69, 0x6f, 
0x6e, 0x65, 0x64, 0x43, 0x61, 0x6c, 0x6c, 0x3a, 0x30, 0x00, 0x00, 0x00, 
0x02, 0x00, 0x00, 0x00, 0xff, 0xff, 0xff, 0xff, 0x02, 0x00, 0x00, 0x00, 
0xb0, 0xf5, 0xff, 0xff, 0x00, 0x00, 0x0e, 0x00, 0x14, 0x00, 0x00, 0x00, 
0x08, 0x00, 0x0c, 0x00, 0x07, 0x00, 0x10, 0x00, 0x0e, 0x00, 0x00, 0x00, 
0x00, 0x00, 0x00, 0x08, 0x18, 0x00, 0x00, 0x00, 0x0c, 0x00, 0x00, 0x00, 
0x04, 0x00, 0x00, 0x00, 0xf8, 0xf4, 0xff, 0xff, 0x01, 0x00, 0x00, 0x00, 
0x05, 0x00, 0x00, 0x00, 0x03, 0x00, 0x00, 0x00, 0x04, 0x00, 0x00, 0x00, 
0x03, 0x00, 0x00, 0x00, 0x01, 0x00, 0x00, 0x00, 0x88, 0xf5, 0xff, 0xff, 
0x14, 0x00, 0x00, 0x00, 0x06, 0x00, 0x00, 0x00, 0x18, 0x00, 0x00, 0x00, 
0x68, 0x00, 0x00, 0x00, 0x58, 0x00, 0x00, 0x00, 0x02, 0x00, 0x00, 0x00, 
0x01, 0x00, 0x00, 0x00, 0x02, 0x00, 0x00, 0x00, 0x42, 0x00, 0x00, 0x00, 
0x73, 0x65, 0x71, 0x75, 0x65, 0x6e, 0x74, 0x69, 0x61, 0x6c, 0x5f, 0x31, 
0x2f, 0x64, 0x65, 0x6e, 0x73, 0x65, 0x5f, 0x44, 0x65, 0x6e, 0x73, 0x65, 
0x32, 0x2f, 0x4d, 0x61, 0x74, 0x4d, 0x75, 0x6c, 0x3b, 0x73, 0x65, 0x71, 
0x75, 0x65, 0x6e, 0x74, 0x69, 0x61, 0x6c, 0x5f, 0x31, 0x2f, 0x64, 0x65, 
0x6e, 0x73, 0x65, 0x5f, 0x44, 0x65, 0x6e, 0x73, 0x65, 0x32, 0x2f, 0x42, 
0x69, 0x61, 0x73, 0x41, 0x64, 0x64, 0x00, 0x00, 0x02, 0x00, 0x00, 0x00, 
0xff, 0xff, 0xff, 0xff, 0x02, 0x00, 0x00, 0x00, 0x6c, 0xf6, 0xff, 0xff, 
0x00, 0x00, 0x0e, 0x00, 0x16, 0x00, 0x00, 0x00, 0x08, 0x00, 0x0c, 0x00, 
0x07, 0x00, 0x10, 0x00, 0x0e, 0x00, 0x00, 0x00, 0x00, 0x00, 0x00, 0x08, 
0x24, 0x00, 0x00, 0x00, 0x18, 0x00, 0x00, 0x00, 0x0c, 0x00, 0x00, 0x00, 
0x00, 0x00, 0x06, 0x00, 0x08, 0x00, 0x07, 0x00, 0x06, 0x00, 0x00, 0x00, 
0x00, 0x00, 0x00, 0x01, 0x01, 0x00, 0x00, 0x00, 0x04, 0x00, 0x00, 0x00, 
0x03, 0x00, 0x00, 0x00, 0x00, 0x00, 0x00, 0x00, 0x02, 0x00, 0x00, 0x00, 
0xff, 0xff, 0xff, 0xff, 0x0c, 0x00, 0x10, 0x00, 0x0b, 0x00, 0x00, 0x00, 
0x0c, 0x00, 0x04, 0x00, 0x0c, 0x00, 0x00, 0x00, 0x09, 0x00, 0x00, 0x00, 
0x00, 0x00, 0x00, 0x09, 0x01, 0x00, 0x00, 0x00, 0x6c, 0xf6, 0xff, 0xff, 
0x14, 0x00, 0x00, 0x00, 0x05, 0x00, 0x00, 0x00, 0x18, 0x00, 0x00, 0x00, 
0x88, 0x00, 0x00, 0x00, 0x78, 0x00, 0x00, 0x00, 0x02, 0x00, 0x00, 0x00, 
0x01, 0x00, 0x00, 0x00, 0x07, 0x00, 0x00, 0x00, 0x61, 0x00, 0x00, 0x00, 
0x73, 0x65, 0x71, 0x75, 0x65, 0x6e, 0x74, 0x69, 0x61, 0x6c, 0x5f, 0x31, 
0x2f, 0x64, 0x65, 0x6e, 0x73, 0x65, 0x5f, 0x44, 0x65, 0x6e, 0x73, 0x65, 
0x31, 0x2f, 0x4d, 0x61, 0x74, 0x4d, 0x75, 0x6c, 0x3b, 0x73, 0x65, 0x71, 
0x75, 0x65, 0x6e, 0x74, 0x69, 0x61, 0x6c, 0x5f, 0x31, 0x2f, 0x64, 0x65, 
0x6e, 0x73, 0x65, 0x5f, 0x44, 0x65, 0x6e, 0x73, 0x65, 0x31, 0x2f, 0x52, 
0x65, 0x6c, 0x75, 0x3b, 0x73, 0x65, 0x71, 0x75, 0x65, 0x6e, 0x74, 0x69, 
0x61, 0x6c, 0x5f, 0x31, 0x2f, 0x64, 0x65, 0x6e, 0x73, 0x65, 0x5f, 0x44, 
0x65, 0x6e, 0x73, 0x65, 0x31, 0x2f, 0x42, 0x69, 0x61, 0x73, 0x41, 0x64, 
0x64, 0x00, 0x00, 0x00, 0x02, 0x00, 0x00, 0x00, 0xff, 0xff, 0xff, 0xff, 
0x07, 0x00, 0x00, 0x00, 0x90, 0xf6, 0xff, 0xff, 0x6a, 0xf7, 0xff, 0xff, 
0x04, 0x00, 0x00, 0x00, 0x38, 0x00, 0x00, 0x00, 0x70, 0x27, 0xa0, 0x3e, 
0xdc, 0x04, 0x9d, 0xbe, 0x76, 0xa5, 0xf7, 0xbd, 0x20, 0x63, 0x3c, 0xbe, 
0x09, 0x1f, 0x88, 0x3e, 0xe8, 0x6f, 0xb1, 0xbd, 0xcb, 0xd6, 0x37, 0x3f, 
0xb7, 0x6f, 0xba, 0xbd, 0x58, 0x0a, 0x48, 0xbf, 0x53, 0x4e, 0x9e, 0xbe, 
0x57, 0xe6, 0x99, 0xbe, 0x05, 0x92, 0xb5, 0xbe, 0xb7, 0x5f, 0x1a, 0xbf, 
0x53, 0xef, 0x1f, 0xbf, 0x92, 0xf7, 0xff, 0xff, 0x10, 0x00, 0x00, 0x00, 
0x04, 0x00, 0x00, 0x00, 0x14, 0x00, 0x00, 0x00, 0x38, 0x00, 0x00, 0x00, 
0x02, 0x00, 0x00, 0x00, 0x02, 0x00, 0x00, 0x00, 0x07, 0x00, 0x00, 0x00, 
0x20, 0x00, 0x00, 0x00, 0x73, 0x65, 0x71, 0x75, 0x65, 0x6e, 0x74, 0x69, 
0x61, 0x6c, 0x5f, 0x31, 0x2f, 0x64, 0x65, 0x6e, 0x73, 0x65, 0x5f, 0x44, 
0x65, 0x6e, 0x73, 0x65, 0x32, 0x2f, 0x4d, 0x61, 0x74, 0x4d, 0x75, 0x6c, 
0x00, 0x00, 0x00, 0x00, 0x20, 0xf7, 0xff, 0xff, 0xfa, 0xf7, 0xff, 0xff, 
0x04, 0x00, 0x00, 0x00, 0xa8, 0x07, 0x00, 0x00, 0x6d, 0x9b, 0xa3, 0xbe, 
0x57, 0xf8, 0x7c, 0xbd, 0x9d, 0x86, 0x22, 0x3e, 0xb7, 0xe3, 0x17, 0xbd, 
0xdb, 0x70, 0xed, 0xbd, 0xce, 0x95, 0xca, 0x3c, 0x44, 0xfe, 0xc1, 0x3d, 
0xc4, 0xab, 0x20, 0x3d, 0xb5, 0x2d, 0x02, 0x3d, 0xa7, 0x19, 0x15, 0x3e, 
0x5e, 0x8b, 0xa0, 0xbd, 0x55, 0xd4, 0x02, 0xbd, 0xa9, 0x8d, 0xb2, 0x3c, 
0x8d, 0x1d, 0x1a, 0x3e, 0xec, 0x41, 0xe1, 0x3d, 0x8c, 0x6e, 0x3d, 0x3e, 
0x2d, 0x2f, 0xf3, 0xbd, 0x95, 0x92, 0xe2, 0x3d, 0x76, 0x37, 0x8a, 0xbd, 
0x44, 0xc6, 0x77, 0x3c, 0x10, 0x7d, 0x90, 0x3e, 0xd3, 0x08, 0xf0, 0x3d, 
0xde, 0xf7, 0x45, 0xbd, 0x5e, 0x4c, 0x38, 0xbe, 0x48, 0x75, 0x58, 0x3e, 
0x0e, 0x4a, 0x0b, 0x3d, 0x23, 0x8e, 0x58, 0x3d, 0x57, 0x31, 0x52, 0x3e, 
0x7f, 0x0c, 0xc5, 0xbd, 0x5f, 0xd9, 0x75, 0xbe, 0x1b, 0x30, 0xb6, 0x3c, 
0x8e, 0x4a, 0x1d, 0x3d, 0x50, 0x2a, 0xbe, 0xbd, 0x34, 0xdc, 0xee, 0x3c, 
0xb7, 0x9b, 0xe0, 0xbc, 0x18, 0x90, 0x26, 0xbe, 0xd4, 0x64, 0x3c, 0x3d, 
0x4c, 0x0e, 0x34, 0xbe, 0xbc, 0x37, 0x1a, 0x3e, 0x54, 0x16, 0x22, 0xbc, 
0xd8, 0x62, 0x92, 0xbd, 0x29, 0x3e, 0x7b, 0xbe, 0x34, 0xf9, 0xcb, 0x3d, 
0x22, 0x68, 0x86, 0x3d, 0x2f, 0x7c, 0x00, 0xbe, 0x25, 0xe7, 0x8a, 0xbe, 
0xbc, 0x0a, 0x79, 0x3d, 0x5f, 0x70, 0x97, 0x3d, 0x8a, 0x10, 0xba, 0x3d, 
0xe2, 0xa5, 0x74, 0x3e, 0x81, 0x26, 0xe8, 0x3c, 0xcd, 0x75, 0xde, 0x3d, 
0x51, 0x38, 0xcb, 0xbd, 0xf7, 0xe5, 0x66, 0x3e, 0x1b, 0xf0, 0x10, 0xbe, 
0x9c, 0x1b, 0x98, 0x3e, 0x9a, 0xb7, 0xc6, 0xbd, 0xb5, 0xcc, 0x65, 0xbe, 
0x2a, 0x16, 0xcd, 0xbc, 0xd5, 0xc2, 0x48, 0xbd, 0xe4, 0x41, 0xf2, 0xbd, 
0x7e, 0x57, 0x5f, 0x3e, 0x1a, 0x4b, 0x96, 0x3c, 0x48, 0xa3, 0xfa, 0xbd, 
0x35, 0x8b, 0xcb, 0xbc, 0x86, 0x2b, 0x7b, 0xbd, 0x93, 0x97, 0x62, 0x3e, 
0xb6, 0x91, 0x4e, 0xbe, 0x63, 0xd5, 0x85, 0xbd, 0xac, 0x91, 0x3f, 0x3e, 
0x8a, 0xbc, 0xa2, 0xbe, 0x84, 0xa6, 0x13, 0xbe, 0x3c, 0x9f, 0x23, 0xbe, 
0x99, 0x8e, 0x2d, 0x3e, 0x88, 0xa2, 0x4f, 0x3e, 0x8d, 0x51, 0x75, 0x3d, 
0x57, 0x47, 0xb6, 0xbd, 0x52, 0x61, 0xcf, 0x3d, 0xae, 0x22, 0x87, 0x3d, 
0xf9, 0xad, 0x65, 0x3e, 0x37, 0xb8, 0x6a, 0xbe, 0xf4, 0xf0, 0xf6, 0x3d, 
0x0f, 0x83, 0x0f, 0xbd, 0x50, 0x4b, 0x89, 0x3a, 0x95, 0x2c, 0x52, 0xbd, 
0x7f, 0x67, 0x2d, 0x3e, 0xa3, 0x69, 0x46, 0x3e, 0xfb, 0x44, 0xa0, 0xbc, 
0x94, 0xc1, 0x57, 0xbe, 0x2a, 0x94, 0x84, 0xbc, 0x5c, 0x0f, 0x88, 0xbe, 
0xe9, 0x7e, 0xa2, 0x3e, 0xba, 0xeb, 0xf0, 0x3d, 0xef, 0x6f, 0x9f, 0xbe, 
0x2f, 0x1c, 0xc8, 0xbd, 0x7a, 0x8f, 0x2e, 0x3e, 0x60, 0xa9, 0xaf, 0x3d, 
0xc6, 0x41, 0xfa, 0x3d, 0x41, 0xfc, 0xb1, 0xbd, 0x43, 0x68, 0x9c, 0x3d, 
0xa4, 0x5f, 0x8c, 0xbd, 0x57, 0x35, 0x8a, 0xbe, 0xbf, 0xb9, 0xe8, 0xbd, 
0x66, 0xdf, 0xfd, 0x3d, 0x66, 0x3f, 0x91, 0xbd, 0x8f, 0x2b, 0x46, 0x3e, 
0x32, 0xfa, 0xa9, 0xbd, 0xd6, 0x22, 0x3f, 0x3d, 0x75, 0xec, 0x1c, 0x3d, 
0xb1, 0xa4, 0xdb, 0x3d, 0x4d, 0x81, 0x37, 0xbd, 0x8b, 0x48, 0x6f, 0x3e, 
0xcf, 0xda, 0x2a, 0xbe, 0x12, 0x83, 0x96, 0x3b, 0x09, 0x54, 0x73, 0xbd, 
0x53, 0xc9, 0x22, 0xbe, 0x0e, 0xdb, 0xe7, 0x3d, 0x25, 0x67, 0xc8, 0x3d, 
0xfb, 0xa0, 0x83, 0xbe, 0x5f, 0x89, 0x8d, 0x3e, 0x93, 0xd0, 0xc8, 0xbd, 
0xe2, 0x92, 0xf6, 0xbc, 0x20, 0x64, 0x15, 0xbd, 0xd5, 0xbe, 0x2a, 0xbe, 
0x5b, 0x13, 0x6f, 0x3d, 0x76, 0x83, 0x42, 0x3d, 0xd6, 0xd7, 0x7a, 0xbd, 
0x8a, 0x2a, 0x64, 0xbd, 0xc6, 0xac, 0x12, 0x3e, 0x49, 0x65, 0xb3, 0xbd, 
0x51, 0xa6, 0x8b, 0xbd, 0x48, 0xae, 0xc8, 0x3c, 0x78, 0x25, 0x3f, 0x3e, 
0x26, 0x4e, 0xd1, 0xbc, 0x78, 0x4e, 0x6d, 0xbe, 0x25, 0x5f, 0x95, 0xbe, 
0x36, 0x9d, 0xa6, 0x3d, 0x5c, 0x01, 0x17, 0x3c, 0x54, 0x66, 0x6c, 0xbe, 
0x56, 0x68, 0x12, 0x3e, 0x41, 0xf3, 0x46, 0x3e, 0x87, 0x7b, 0xc6, 0xbd, 
0x2b, 0x62, 0x31, 0x3c, 0x26, 0x7a, 0x35, 0xbe, 0xaf, 0x11, 0x5e, 0xbe, 
0x7f, 0x90, 0x84, 0x3d, 0xdb, 0xa4, 0x33, 0xbe, 0xa0, 0x07, 0x54, 0x3e, 
0xa5, 0xff, 0x2e, 0xbc, 0xda, 0x3f, 0x0b, 0x3e, 0x67, 0x11, 0x49, 0xbe, 
0x9b, 0x98, 0xf8, 0xbd, 0x83, 0xd2, 0xb9, 0xbd, 0x9e, 0x81, 0x39, 0xbe, 
0x9c, 0xd5, 0x27, 0x3d, 0x50, 0x6d, 0x92, 0xbd, 0x59, 0xb7, 0x1c, 0x3e, 
0x78, 0xc0, 0x09, 0x3e, 0xa7, 0x61, 0x0f, 0xbe, 0x53, 0xfe, 0xb5, 0x3b, 
0x55, 0x70, 0x1e, 0xbe, 0x71, 0x69, 0x67, 0xbe, 0xe7, 0xda, 0x2b, 0x3e, 
0xab, 0xad, 0x56, 0x3e, 0x30, 0x33, 0x3a, 0xbe, 0x0d, 0x9e, 0x2f, 0xbe, 
0x2c, 0x02, 0x36, 0xbe, 0xcb, 0x0c, 0xd5, 0x3b, 0xe6, 0xba, 0x42, 0xbb, 
0x51, 0xa8, 0x0b, 0x3e, 0x88, 0xb0, 0x9c, 0xbe, 0xf5, 0xa9, 0x0c, 0xbe, 
0x13, 0x38, 0x91, 0x3e, 0x6a, 0x05, 0x9c, 0xbe, 0xe5, 0xb8, 0x69, 0xbe, 
0x89, 0x06, 0x60, 0xbe, 0xd0, 0xef, 0xdc, 0x3c, 0x5b, 0x0b, 0xe6, 0xbd, 
0x47, 0x6a, 0x09, 0xbe, 0x78, 0xa2, 0x36, 0xbd, 0x0f, 0x84, 0xdd, 0xbc, 
0x02, 0xec, 0x0e, 0x3e, 0xa8, 0xec, 0x5a, 0xbe, 0x10, 0x71, 0x2a, 0x3e, 
0xb0, 0x23, 0x9b, 0x3b, 0x34, 0xa9, 0x99, 0xbd, 0xe9, 0xab, 0x81, 0x3e, 
0x1d, 0x1e, 0x59, 0x3e, 0xe5, 0xc8, 0xa1, 0x3e, 0x95, 0xc3, 0x3a, 0xbd, 
0xf7, 0x51, 0x90, 0xbd, 0xf7, 0xfa, 0x55, 0xbe, 0x61, 0x3a, 0x6c, 0x3d, 
0x85, 0x7c, 0x70, 0xbe, 0x90, 0x97, 0x11, 0xbe, 0xb4, 0x25, 0x51, 0xbe, 
0xbd, 0xc8, 0xcf, 0x3d, 0x1f, 0x8a, 0x0c, 0x3c, 0x93, 0x9d, 0x2e, 0x3d, 
0xc2, 0xcb, 0xfb, 0x3d, 0x99, 0x98, 0x66, 0x3e, 0x4a, 0xc1, 0x75, 0xbd, 
0x0c, 0x1d, 0xa0, 0x3e, 0x71, 0xcf, 0x92, 0xbe, 0xad, 0x1f, 0x0a, 0x3e, 
0x21, 0xa1, 0x09, 0x3d, 0xca, 0xb0, 0x43, 0xbe, 0x3c, 0x21, 0x2b, 0xbd, 
0xa6, 0xe3, 0xb0, 0x3d, 0xa5, 0xce, 0x20, 0x3c, 0x65, 0xbf, 0x14, 0xbd, 
0x8b, 0xe6, 0x71, 0x3e, 0x33, 0x3e, 0x00, 0xbe, 0x10, 0x93, 0x94, 0x3d, 
0xd4, 0x93, 0x8b, 0x3d, 0xf4, 0xb0, 0xf6, 0x3d, 0x03, 0xff, 0x54, 0x3e, 
0x1a, 0x80, 0xa7, 0x3d, 0x01, 0x15, 0xfb, 0x3c, 0xf4, 0x37, 0x05, 0xbd, 
0x15, 0x10, 0x6b, 0x3d, 0x7c, 0x60, 0x48, 0x3d, 0x2d, 0x38, 0x47, 0xbe, 
0xd2, 0xa3, 0xa1, 0x3e, 0x7d, 0xec, 0x02, 0x3e, 0xe6, 0xb5, 0x05, 0xbc, 
0x3f, 0x47, 0x8e, 0xbe, 0xf9, 0x4b, 0xb9, 0xbd, 0x59, 0x18, 0x12, 0xbe, 
0x0b, 0x04, 0x56, 0x3e, 0xab, 0x0f, 0x9c, 0xbe, 0xec, 0x9d, 0x8e, 0xbe, 
0x39, 0xc9, 0xd9, 0x3d, 0xe2, 0x87, 0x3e, 0x3e, 0xd4, 0xce, 0xeb, 0x3c, 
0xa5, 0x59, 0x01, 0xbe, 0xac, 0x6f, 0x6a, 0xbd, 0x10, 0x0f, 0x71, 0x3d, 
0x15, 0x88, 0x8f, 0x3c, 0x80, 0x81, 0xac, 0xbd, 0x4a, 0x65, 0x14, 0xbe, 
0x2f, 0x86, 0x0e, 0x3e, 0xaa, 0x27, 0x92, 0xbe, 0x36, 0xc8, 0xcd, 0x3b, 
0xa0, 0x51, 0x29, 0xbc, 0x22, 0x28, 0xcf, 0xbc, 0x47, 0x82, 0xc3, 0x3c, 
0x07, 0xa5, 0x57, 0xbe, 0x9f, 0x93, 0x12, 0xbd, 0xfe, 0x1f, 0x21, 0xbc, 
0x3f, 0x8d, 0x22, 0x3c, 0x4a, 0xeb, 0x03, 0x3e, 0x8f, 0xde, 0xc1, 0xbc, 
0xb9, 0xe9, 0x6b, 0x3d, 0xcc, 0x97, 0xd7, 0xbd, 0x34, 0x4f, 0x1f, 0x3e, 
0x74, 0xff, 0x35, 0x3e, 0x66, 0x79, 0x1a, 0x3e, 0x22, 0x80, 0x81, 0x3e, 
0xa7, 0x1a, 0x59, 0xbe, 0x1e, 0x4f, 0x8c, 0x3b, 0xf4, 0x3b, 0x24, 0xbd, 
0x9a, 0x97, 0xf0, 0x3c, 0x90, 0x0f, 0x99, 0xbd, 0x9a, 0xce, 0x42, 0x3e, 
0x33, 0x13, 0x31, 0xbd, 0x2c, 0xd8, 0x18, 0xbe, 0x31, 0x93, 0x11, 0xbe, 
0xcf, 0x71, 0xd6, 0xbd, 0xdd, 0xb8, 0x65, 0x3e, 0x08, 0xa5, 0xa8, 0xbc, 
0x86, 0x3e, 0xe6, 0x3d, 0xd0, 0xda, 0x6f, 0xbc, 0x95, 0x97, 0xde, 0xbd, 
0xfd, 0xb4, 0x65, 0x3e, 0xf6, 0xae, 0x48, 0x3d, 0x99, 0xf2, 0x96, 0xbd, 
0x4e, 0xbb, 0x9d, 0x3e, 0xa0, 0x01, 0xfe, 0xbd, 0x6d, 0xd7, 0x87, 0x3d, 
0xa6, 0x14, 0xb1, 0x3d, 0x16, 0xb5, 0x70, 0xbe, 0x2e, 0x21, 0xf5, 0x3c, 
0xf9, 0x8b, 0x6e, 0xbe, 0x7f, 0xbb, 0x39, 0x3c, 0x64, 0x32, 0xba, 0x3d, 
0xca, 0xae, 0x11, 0xbe, 0x72, 0xe9, 0x7b, 0xbe, 0xad, 0x0e, 0x3a, 0x3d, 
0x58, 0x7e, 0xc9, 0xbd, 0xcc, 0x67, 0x6a, 0x3e, 0x70, 0xf1, 0x45, 0xbe, 
0x8b, 0xbc, 0xe6, 0x3d, 0x0c, 0xa0, 0xad, 0x3d, 0x70, 0x46, 0xd5, 0x3d, 
0x5c, 0x3e, 0xca, 0x3d, 0x31, 0x4e, 0xb2, 0xbd, 0x15, 0xf4, 0x23, 0xbe, 
0x27, 0x59, 0x67, 0xbe, 0xa7, 0x5d, 0x71, 0x3e, 0x72, 0xe1, 0x7f, 0xbd, 
0xdf, 0x8a, 0xb4, 0xbd, 0x77, 0x2f, 0x37, 0xbd, 0xdf, 0x2a, 0x31, 0xbe, 
0x45, 0xfe, 0x71, 0xbd, 0x4e, 0x29, 0x6e, 0x3e, 0xb1, 0xa0, 0xc0, 0x3d, 
0xef, 0x1c, 0x2f, 0xbd, 0x47, 0xbc, 0x28, 0xbe, 0xa0, 0x2c, 0xb6, 0x3d, 
0x9a, 0x1e, 0x81, 0x3b, 0x69, 0xdc, 0x1e, 0x3e, 0xeb, 0x6a, 0xe5, 0x3d, 
0x24, 0x9d, 0x96, 0xbe, 0x39, 0x08, 0x9e, 0xbd, 0xde, 0xc5, 0x34, 0x3e, 
0xba, 0xc6, 0x37, 0xbe, 0xff, 0xcb, 0x5d, 0x3a, 0x24, 0xc5, 0xba, 0x3d, 
0xae, 0x0b, 0x7f, 0x3e, 0x1f, 0x8d, 0x5b, 0xbe, 0x6d, 0xef, 0x0b, 0xbc, 
0x06, 0x4f, 0x63, 0x3e, 0x60, 0x53, 0x47, 0xbc, 0x6b, 0xbd, 0x95, 0x3d, 
0x1c, 0xa3, 0x0b, 0x3c, 0xee, 0x07, 0x07, 0xbe, 0xdc, 0xc5, 0xf1, 0x3d, 
0xf7, 0x15, 0x65, 0xbe, 0xa8, 0xfc, 0xc0, 0x3b, 0x1d, 0xb9, 0xad, 0xbc, 
0xf6, 0xf1, 0x5c, 0x3e, 0x24, 0xdf, 0xfc, 0xbb, 0x43, 0xc7, 0x06, 0x3d, 
0x4f, 0x44, 0x5e, 0x3d, 0xd8, 0x11, 0xea, 0x3d, 0xab, 0x4a, 0x84, 0xbe, 
0xcf, 0x3b, 0x79, 0xbe, 0x73, 0x61, 0x19, 0x3e, 0x01, 0xe6, 0xc6, 0xbd, 
0xc0, 0xcd, 0xc5, 0xbd, 0xf4, 0x04, 0x29, 0xbe, 0xbe, 0x39, 0x8b, 0x3d, 
0xbb, 0xfe, 0xd4, 0xbd, 0xc1, 0x29, 0xba, 0xbd, 0x4e, 0xb4, 0x28, 0xbd, 
0xe7, 0x06, 0x2a, 0xbe, 0x56, 0x0d, 0x7e, 0x3d, 0xa6, 0xe0, 0x66, 0xbe, 
0xb0, 0x03, 0x01, 0xbe, 0x12, 0x2b, 0xfc, 0x3c, 0x23, 0xc6, 0x5e, 0x3e, 
0x57, 0xf6, 0x8c, 0xbd, 0x75, 0xed, 0x86, 0x3d, 0x3d, 0x89, 0x6e, 0xbe, 
0xd3, 0x0d, 0x58, 0x3e, 0xfb, 0x62, 0xaa, 0x3d, 0xdb, 0x82, 0x17, 0x3e, 
0x65, 0x41, 0x24, 0x3e, 0xf6, 0xe4, 0x1b, 0xbc, 0x67, 0xff, 0xe1, 0xbd, 
0xa0, 0xc0, 0x3f, 0xbe, 0x21, 0x27, 0x98, 0xbd, 0x81, 0x5c, 0xdc, 0xbd, 
0x81, 0xe4, 0xcb, 0x3b, 0xd3, 0x62, 0xb4, 0xbd, 0xa2, 0x8d, 0xb2, 0xbd, 
0x6a, 0x56, 0x04, 0x3e, 0x07, 0xc3, 0x6c, 0xbc, 0x2f, 0xd7, 0xa9, 0xbd, 
0x3d, 0xd6, 0x53, 0x3d, 0x95, 0xb0, 0x3b, 0xbe, 0x13, 0x36, 0x6a, 0xbd, 
0x4e, 0x99, 0x0d, 0x3e, 0xc5, 0x11, 0xce, 0xbd, 0xe1, 0xea, 0x67, 0xbd, 
0xe4, 0x1d, 0x8d, 0xbc, 0xd5, 0x55, 0x19, 0x3e, 0xc1, 0xe8, 0x1f, 0xbe, 
0xeb, 0x4a, 0x20, 0x3e, 0x6f, 0xce, 0x9f, 0x3c, 0x24, 0x04, 0x3e, 0x3d, 
0xe6, 0xd7, 0x95, 0xbd, 0xa2, 0x25, 0x55, 0xbd, 0x76, 0xad, 0x22, 0x3e, 
0xba, 0xae, 0xe6, 0xbb, 0xc1, 0xbc, 0x15, 0xbe, 0x4e, 0x0c, 0x02, 0x3e, 
0xfd, 0x1a, 0x3f, 0x3e, 0xb7, 0x94, 0xd1, 0xbd, 0xe2, 0xdc, 0xcb, 0xbc, 
0xf7, 0xa6, 0x70, 0x3d, 0x8b, 0xf7, 0x19, 0x3e, 0xe0, 0x81, 0x16, 0x3e, 
0x49, 0x5b, 0x57, 0xbe, 0x83, 0xd8, 0x05, 0x3e, 0x7c, 0x43, 0xfc, 0xbd, 
0xbe, 0x71, 0xdc, 0xbc, 0x96, 0x04, 0x17, 0x3e, 0x08, 0xc4, 0x13, 0xbe, 
0x79, 0x91, 0xf6, 0x3b, 0x23, 0x02, 0x07, 0x3d, 0x19, 0xaf, 0xeb, 0xbd, 
0x6b, 0x5c, 0x01, 0x3e, 0x85, 0x31, 0x74, 0x3c, 0x18, 0xae, 0x76, 0x3e, 
0x63, 0xbd, 0x5e, 0x3e, 0xcb, 0x5a, 0x7c, 0xbd, 0x3f, 0x5d, 0x37, 0xbe, 
0xb1, 0xd9, 0x20, 0x3c, 0xa4, 0x5a, 0x40, 0x3d, 0xce, 0xe2, 0x00, 0xbe, 
0x77, 0xd1, 0x02, 0x3e, 0x7a, 0x8b, 0x70, 0xbd, 0x26, 0x4d, 0x03, 0xbe, 
0xc0, 0xfb, 0xae, 0x3d, 0xe7, 0xa5, 0x42, 0x3c, 0x43, 0x92, 0xd5, 0xbd, 
0x61, 0xbb, 0x08, 0x3e, 0x09, 0x79, 0x07, 0xbe, 0x19, 0x24, 0x43, 0xbe, 
0xac, 0x87, 0xb2, 0xbd, 0xf7, 0x78, 0x6a, 0xbe, 0x8c, 0x34, 0x88, 0x3e, 
0xbe, 0x55, 0x3b, 0x3e, 0xe0, 0x5a, 0xaa, 0xbd, 0x01, 0x0d, 0x89, 0x3d, 
0xe0, 0x9d, 0x81, 0x3e, 0x11, 0x88, 0x3e, 0xbd, 0x3e, 0xa6, 0xb3, 0x3d, 
0x24, 0x90, 0x93, 0x3e, 0x61, 0x14, 0x27, 0xbd, 0x32, 0x56, 0xb3, 0xbc, 
0x8e, 0x9c, 0xcb, 0x3c, 0xf1, 0xd1, 0xf7, 0x3d, 0xcc, 0xf1, 0x78, 0x3e, 
0x52, 0xc8, 0x4e, 0xbd, 0xf2, 0x80, 0x45, 0xbe, 0xdc, 0xfb, 0xc2, 0xbd, 
0xa7, 0x73, 0xc1, 0x3d, 0xfa, 0x24, 0x64, 0x3e, 0xc0, 0x95, 0xac, 0xbd, 
0x53, 0x65, 0x17, 0xbd, 0x22, 0xa0, 0xb1, 0xbc, 0x6e, 0xe5, 0x8c, 0xbd, 
0x9c, 0x4c, 0x7c, 0x3c, 0xa7, 0x2f, 0x89, 0x3d, 0x83, 0x81, 0xd3, 0x3d, 
0xfa, 0x02, 0x09, 0xbe, 0x9c, 0x4b, 0x65, 0x3e, 0x20, 0xdc, 0x71, 0xbb, 
0x4a, 0x25, 0x20, 0x3d, 0x1f, 0x63, 0xd0, 0xbd, 0x5f, 0xbe, 0x05, 0x3e, 
0x4e, 0x53, 0x5d, 0xbd, 0xc8, 0xf0, 0x9d, 0xbd, 0xc1, 0xf8, 0x2c, 0x3e, 
0xfd, 0xab, 0x9f, 0xbd, 0x75, 0xc2, 0x65, 0x3d, 0x8a, 0x98, 0x45, 0x3e, 
0x7a, 0xe6, 0x02, 0x3d, 0x07, 0x36, 0x1e, 0x3d, 0x6b, 0xc9, 0x96, 0x3c, 
0xb7, 0x8f, 0xf4, 0xbd, 0x46, 0xdb, 0x41, 0xbe, 0xa0, 0x65, 0x82, 0x3d, 
0xbf, 0x4e, 0x9d, 0xbd, 0xde, 0xd2, 0x7c, 0xbe, 0x4b, 0xac, 0x58, 0xbd, 
0x2f, 0x02, 0x09, 0x3d, 0xdf, 0x69, 0xb8, 0xbb, 0x3d, 0x7d, 0x7b, 0x3e, 
0x51, 0x9e, 0xc4, 0x3d, 0x48, 0x63, 0x45, 0x3e, 0xea, 0x1f, 0x83, 0x3d, 
0x56, 0xf3, 0x55, 0xbe, 0xa3, 0xaa, 0xbb, 0xbd, 0xd5, 0xef, 0x4d, 0x3e, 
0x76, 0xde, 0x8d, 0xbe, 0x66, 0x12, 0x7e, 0x3e, 0x2f, 0xb1, 0x2e, 0xbe, 
0xe6, 0xfa, 0x80, 0xbc, 0xf9, 0x52, 0x0c, 0xbd, 0xd5, 0xe5, 0x86, 0xbe, 
0x93, 0xc4, 0xa7, 0x3c, 0x02, 0x5d, 0xad, 0x3c, 0x10, 0x2f, 0x3a, 0x3b, 
0xd5, 0xba, 0x53, 0x3d, 0xa8, 0x39, 0xc1, 0x3d, 0xd5, 0x28, 0xd1, 0x3d, 
0x92, 0xff, 0xff, 0xff, 0x10, 0x00, 0x00, 0x00, 0x03, 0x00, 0x00, 0x00, 
0x14, 0x00, 0x00, 0x00, 0x3c, 0x00, 0x00, 0x00, 0x02, 0x00, 0x00, 0x00, 
0x07, 0x00, 0x00, 0x00, 0x46, 0x00, 0x00, 0x00, 0x20, 0x00, 0x00, 0x00, 
0x73, 0x65, 0x71, 0x75, 0x65, 0x6e, 0x74, 0x69, 0x61, 0x6c, 0x5f, 0x31, 
0x2f, 0x64, 0x65, 0x6e, 0x73, 0x65, 0x5f, 0x44, 0x65, 0x6e, 0x73, 0x65, 
0x31, 0x2f, 0x4d, 0x61, 0x74, 0x4d, 0x75, 0x6c, 0x00, 0x00, 0x00, 0x00, 
0x04, 0x00, 0x06, 0x00, 0x04, 0x00, 0x00, 0x00, 0x00, 0x00, 0x06, 0x00, 
0x08, 0x00, 0x04, 0x00, 0x06, 0x00, 0x00, 0x00, 0x04, 0x00, 0x00, 0x00, 
0x08, 0x00, 0x00, 0x00, 0x92, 0x8d, 0xf6, 0x3f, 0x92, 0x8d, 0xf6, 0xbf, 
0x00, 0x00, 0x0e, 0x00, 0x14, 0x00, 0x04, 0x00, 0x00, 0x00, 0x08, 0x00, 
0x0c, 0x00, 0x10, 0x00, 0x0e, 0x00, 0x00, 0x00, 0x10, 0x00, 0x00, 0x00, 
0x02, 0x00, 0x00, 0x00, 0x10, 0x00, 0x00, 0x00, 0x24, 0x00, 0x00, 0x00, 
0x01, 0x00, 0x00, 0x00, 0x02, 0x00, 0x00, 0x00, 0x11, 0x00, 0x00, 0x00, 
0x64, 0x65, 0x6e, 0x73, 0x65, 0x5f, 0x44, 0x65, 0x6e, 0x73, 0x65, 0x32, 
0x2f, 0x62, 0x69, 0x61, 0x73, 0x00, 0x00, 0x00, 0x88, 0xff, 0xff, 0xff, 
0x14, 0x00, 0x18, 0x00, 0x04, 0x00, 0x00, 0x00, 0x08, 0x00, 0x0c, 0x00, 
0x10, 0x00, 0x00, 0x00, 0x00, 0x00, 0x14, 0x00, 0x14, 0x00, 0x00, 0x00, 
0x14, 0x00, 0x00, 0x00, 0x01, 0x00, 0x00, 0x00, 0x18, 0x00, 0x00, 0x00, 
0x4c, 0x00, 0x00, 0x00, 0x3c, 0x00, 0x00, 0x00, 0x02, 0x00, 0x00, 0x00, 
0x01, 0x00, 0x00, 0x00, 0x46, 0x00, 0x00, 0x00, 0x24, 0x00, 0x00, 0x00, 
0x73, 0x65, 0x72, 0x76, 0x69, 0x6e, 0x67, 0x5f, 0x64, 0x65, 0x66, 0x61, 
0x75, 0x6c, 0x74, 0x5f, 0x64, 0x65, 0x6e, 0x73, 0x65, 0x5f, 0x44, 0x65, 
0x6e, 0x73, 0x65, 0x31, 0x5f, 0x69, 0x6e, 0x70, 0x75, 0x74, 0x3a, 0x30, 
0x00, 0x00, 0x00, 0x00, 0x02, 0x00, 0x00, 0x00, 0xff, 0xff, 0xff, 0xff, 
0x46, 0x00, 0x00, 0x00, 0xfc, 0xff, 0xff, 0xff, 0x04, 0x00, 0x04, 0x00, 
0x04, 0x00, 0x00, 0x00, 
};
const int g_model_len = 3508;